unsigned char modelo_lite_tflite[] = {
  0x1c, 0x00, 0x00, 0x00, 0x54, 0x46, 0x4c, 0x33, 0x14, 0x00, 0x20, 0x00,
  0x1c, 0x00, 0x18, 0x00, 0x14, 0x00, 0x10, 0x00, 0x0c, 0x00, 0x00, 0x00,
  0x08, 0x00, 0x04, 0x00, 0x14, 0x00, 0x00, 0x00, 0x1c, 0x00, 0x00, 0x00,
  0x84, 0x00, 0x00, 0x00, 0xdc, 0x00, 0x00, 0x00, 0xd8, 0x0b, 0x00, 0x00,
  0xe8, 0x0b, 0x00, 0x00, 0x1c, 0x10, 0x00, 0x00, 0x03, 0x00, 0x00, 0x00,
  0x01, 0x00, 0x00, 0x00, 0x04, 0x00, 0x00, 0x00, 0xde, 0xf3, 0xff, 0xff,
  0x0c, 0x00, 0x00, 0x00, 0x1c, 0x00, 0x00, 0x00, 0x38, 0x00, 0x00, 0x00,
  0x0f, 0x00, 0x00, 0x00, 0x73, 0x65, 0x72, 0x76, 0x69, 0x6e, 0x67, 0x5f,
  0x64, 0x65, 0x66, 0x61, 0x75, 0x6c, 0x74, 0x00, 0x01, 0x00, 0x00, 0x00,
  0x04, 0x00, 0x00, 0x00, 0x98, 0xff, 0xff, 0xff, 0x07, 0x00, 0x00, 0x00,
  0x04, 0x00, 0x00, 0x00, 0x07, 0x00, 0x00, 0x00, 0x64, 0x65, 0x6e, 0x73,
  0x65, 0x5f, 0x31, 0x00, 0x01, 0x00, 0x00, 0x00, 0x04, 0x00, 0x00, 0x00,
  0xaa, 0xf4, 0xff, 0xff, 0x04, 0x00, 0x00, 0x00, 0x0b, 0x00, 0x00, 0x00,
  0x64, 0x65, 0x6e, 0x73, 0x65, 0x5f, 0x69, 0x6e, 0x70, 0x75, 0x74, 0x00,
  0x02, 0x00, 0x00, 0x00, 0x34, 0x00, 0x00, 0x00, 0x04, 0x00, 0x00, 0x00,
  0xdc, 0xff, 0xff, 0xff, 0x0a, 0x00, 0x00, 0x00, 0x04, 0x00, 0x00, 0x00,
  0x13, 0x00, 0x00, 0x00, 0x43, 0x4f, 0x4e, 0x56, 0x45, 0x52, 0x53, 0x49,
  0x4f, 0x4e, 0x5f, 0x4d, 0x45, 0x54, 0x41, 0x44, 0x41, 0x54, 0x41, 0x00,
  0x08, 0x00, 0x0c, 0x00, 0x08, 0x00, 0x04, 0x00, 0x08, 0x00, 0x00, 0x00,
  0x09, 0x00, 0x00, 0x00, 0x04, 0x00, 0x00, 0x00, 0x13, 0x00, 0x00, 0x00,
  0x6d, 0x69, 0x6e, 0x5f, 0x72, 0x75, 0x6e, 0x74, 0x69, 0x6d, 0x65, 0x5f,
  0x76, 0x65, 0x72, 0x73, 0x69, 0x6f, 0x6e, 0x00, 0x0b, 0x00, 0x00, 0x00,
  0xf8, 0x0a, 0x00, 0x00, 0xf0, 0x0a, 0x00, 0x00, 0xdc, 0x0a, 0x00, 0x00,
  0xc4, 0x08, 0x00, 0x00, 0xb4, 0x02, 0x00, 0x00, 0xa4, 0x00, 0x00, 0x00,
  0x9c, 0x00, 0x00, 0x00, 0x94, 0x00, 0x00, 0x00, 0x8c, 0x00, 0x00, 0x00,
  0x6c, 0x00, 0x00, 0x00, 0x04, 0x00, 0x00, 0x00, 0x4e, 0xf5, 0xff, 0xff,
  0x04, 0x00, 0x00, 0x00, 0x58, 0x00, 0x00, 0x00, 0x0c, 0x00, 0x00, 0x00,
  0x08, 0x00, 0x0e, 0x00, 0x08, 0x00, 0x04, 0x00, 0x08, 0x00, 0x00, 0x00,
  0x10, 0x00, 0x00, 0x00, 0x28, 0x00, 0x00, 0x00, 0x00, 0x00, 0x06, 0x00,
  0x08, 0x00, 0x04, 0x00, 0x06, 0x00, 0x00, 0x00, 0x04, 0x00, 0x00, 0x00,
  0x01, 0x00, 0x00, 0x00, 0xea, 0x03, 0x00, 0x00, 0x00, 0x00, 0x0a, 0x00,
  0x10, 0x00, 0x0c, 0x00, 0x08, 0x00, 0x04, 0x00, 0x0a, 0x00, 0x00, 0x00,
  0x01, 0x00, 0x00, 0x00, 0x02, 0x00, 0x00, 0x00, 0x04, 0x00, 0x00, 0x00,
  0x06, 0x00, 0x00, 0x00, 0x32, 0x2e, 0x31, 0x34, 0x2e, 0x30, 0x00, 0x00,
  0xb2, 0xf5, 0xff, 0xff, 0x04, 0x00, 0x00, 0x00, 0x10, 0x00, 0x00, 0x00,
  0x31, 0x2e, 0x31, 0x34, 0x2e, 0x30, 0x00, 0x00, 0x00, 0x00, 0x00, 0x00,
  0x00, 0x00, 0x00, 0x00, 0x9c, 0xf1, 0xff, 0xff, 0xa0, 0xf1, 0xff, 0xff,
  0xa4, 0xf1, 0xff, 0xff, 0xda, 0xf5, 0xff, 0xff, 0x04, 0x00, 0x00, 0x00,
  0x00, 0x02, 0x00, 0x00, 0x36, 0x3e, 0x02, 0x3e, 0x82, 0xa8, 0x9e, 0xbe,
  0xa0, 0x0b, 0x5e, 0x3e, 0xb2, 0xc1, 0x67, 0x3d, 0x4f, 0xc3, 0x0b, 0xbe,
  0x2c, 0xa9, 0xa2, 0x3d, 0xcb, 0xc2, 0x50, 0x3c, 0xe8, 0xe1, 0xad, 0xbe,
  0x85, 0x94, 0x85, 0xbe, 0xf1, 0x86, 0xbe, 0xbe, 0xee, 0x5c, 0x24, 0x3e,
  0x4f, 0x93, 0x63, 0xbe, 0xd4, 0x15, 0x11, 0x3e, 0x7c, 0x91, 0xc1, 0x3d,
  0x89, 0x9f, 0xb7, 0xbd, 0x83, 0xbd, 0x77, 0xbd, 0x51, 0x4b, 0x99, 0xbe,
  0x5b, 0xb5, 0x57, 0xbe, 0x43, 0x82, 0x47, 0xbe, 0x37, 0x94, 0x84, 0x3e,
  0xa9, 0x1c, 0x39, 0xbe, 0xd6, 0xb3, 0x9e, 0xbe, 0x4e, 0x31, 0x84, 0xbd,
  0x48, 0xf8, 0x98, 0x3e, 0xc5, 0x36, 0x4d, 0x3e, 0xec, 0x5d, 0x8e, 0xbe,
  0x9e, 0xfb, 0xb3, 0x3d, 0x5c, 0x1d, 0xa6, 0x3d, 0x69, 0xbc, 0x80, 0xbe,
  0x56, 0x48, 0x04, 0xbd, 0x81, 0x83, 0x73, 0x3d, 0x08, 0x75, 0xaf, 0x3d,
  0xf4, 0x72, 0x92, 0x3d, 0x11, 0x84, 0x5f, 0xbe, 0x44, 0x2a, 0x2b, 0x3e,
  0xec, 0x70, 0x71, 0x3e, 0x53, 0xc3, 0xb9, 0xbd, 0xf4, 0x9e, 0xd5, 0x3c,
  0xa3, 0x2e, 0x44, 0x3e, 0x0f, 0x3e, 0x15, 0xbe, 0xa6, 0x2e, 0x97, 0x3d,
  0x6d, 0xe8, 0x7b, 0xbe, 0x96, 0xc4, 0x4b, 0xbe, 0x43, 0x20, 0x38, 0x3d,
  0xec, 0x31, 0x62, 0xbe, 0x96, 0xa1, 0x32, 0xbe, 0x4e, 0xfc, 0x25, 0xbe,
  0xfe, 0x92, 0x2f, 0x3c, 0x21, 0x0b, 0xad, 0xbe, 0x4d, 0xd8, 0x1a, 0x3e,
  0x5b, 0x6e, 0x6f, 0xbe, 0xda, 0x42, 0x97, 0x3e, 0x84, 0x89, 0x67, 0xbe,
  0x00, 0xa2, 0x55, 0x3e, 0x69, 0xb8, 0x23, 0x3e, 0x81, 0xf9, 0x07, 0x3e,
  0x0a, 0x68, 0x13, 0x3e, 0x91, 0xa3, 0xf3, 0x3d, 0x09, 0xab, 0x08, 0x3e,
  0x8e, 0x34, 0xc0, 0xbe, 0x52, 0x45, 0x1b, 0xbe, 0x7e, 0x20, 0x94, 0x3e,
  0x55, 0xcb, 0x62, 0xbe, 0xeb, 0xa8, 0xa3, 0xbe, 0x1f, 0x7c, 0x12, 0xbe,
  0x5e, 0xff, 0x09, 0xbe, 0x96, 0x63, 0x07, 0xbe, 0x8e, 0xe7, 0xff, 0x3d,
  0x05, 0x06, 0xaf, 0x3d, 0x1d, 0x6c, 0xf9, 0xbd, 0xdb, 0x96, 0xb2, 0x3e,
  0x08, 0xcb, 0xc7, 0x3d, 0xfb, 0x6a, 0x3a, 0x3e, 0xf5, 0x05, 0x06, 0x3e,
  0x8e, 0xde, 0xcf, 0x3d, 0xf6, 0x2d, 0x92, 0xbe, 0x9f, 0x6b, 0x28, 0xbe,
  0xb2, 0xa6, 0xf8, 0xbc, 0x63, 0xf9, 0xfc, 0xbd, 0x3f, 0x8f, 0x87, 0x3c,
  0x98, 0xa2, 0x27, 0x3e, 0x7b, 0x19, 0x84, 0xbd, 0x42, 0xfb, 0x3f, 0xbe,
  0xbe, 0x9f, 0xc9, 0x3d, 0x96, 0xf6, 0xe6, 0xbd, 0x10, 0x7f, 0x18, 0x3e,
  0xa7, 0x78, 0x13, 0x3e, 0x92, 0x37, 0x64, 0xbe, 0xaf, 0xa9, 0xa7, 0xbe,
  0x59, 0xe6, 0x71, 0xbd, 0x4d, 0x99, 0x7e, 0x3e, 0x9d, 0x9f, 0x52, 0xbe,
  0x18, 0x4d, 0x91, 0xbe, 0x6c, 0x60, 0x15, 0x3e, 0xeb, 0x8b, 0xa0, 0x3e,
  0x8a, 0x62, 0x9b, 0xbe, 0x7a, 0x66, 0x34, 0xbe, 0x34, 0xe5, 0x6c, 0xbe,
  0xda, 0xb8, 0x50, 0x3d, 0x45, 0x4b, 0x78, 0xbe, 0xcc, 0xb4, 0x02, 0x3e,
  0x87, 0x1b, 0x8f, 0x3d, 0xa3, 0x88, 0x99, 0xbe, 0x50, 0x31, 0x40, 0xbe,
  0xa0, 0xf0, 0x4e, 0x3e, 0xca, 0x48, 0x29, 0xbe, 0x79, 0x71, 0x75, 0xbe,
  0x46, 0x60, 0xac, 0x3d, 0x8b, 0x6a, 0x53, 0xbe, 0x86, 0xdd, 0x19, 0xbe,
  0x79, 0x35, 0x85, 0x3d, 0x3a, 0xcc, 0x35, 0x3d, 0x06, 0x79, 0x45, 0xbe,
  0x23, 0x2d, 0x3f, 0xbe, 0x34, 0xe0, 0x51, 0x3e, 0x72, 0xae, 0x10, 0xbe,
  0xa0, 0xa4, 0xbf, 0x3d, 0xea, 0x7b, 0x35, 0x3d, 0x46, 0xd4, 0xd3, 0x3d,
  0xb2, 0x20, 0xd6, 0xbd, 0x74, 0x1f, 0x67, 0x3e, 0x6a, 0x01, 0x84, 0xbc,
  0x75, 0xdd, 0xe5, 0xbd, 0x86, 0x8f, 0x6e, 0xbe, 0x1f, 0x41, 0xd0, 0xbd,
  0x68, 0xb1, 0x9c, 0xbe, 0xab, 0x15, 0x2e, 0x3e, 0xe6, 0x6c, 0x38, 0xbe,
  0xe6, 0xf7, 0xff, 0xff, 0x04, 0x00, 0x00, 0x00, 0x00, 0x06, 0x00, 0x00,
  0x9e, 0x09, 0x72, 0x3d, 0x38, 0x72, 0x91, 0x3c, 0x42, 0x8b, 0x19, 0xbe,
  0x6d, 0x66, 0x01, 0xbc, 0x16, 0xe9, 0xe4, 0xbd, 0x00, 0x91, 0x1f, 0x3e,
  0x64, 0x86, 0xb9, 0x3d, 0x53, 0x69, 0xf8, 0x3d, 0x01, 0x0f, 0xe0, 0x3c,
  0xfe, 0x3c, 0xf4, 0xbd, 0x85, 0x2c, 0x0c, 0xbe, 0xb9, 0x28, 0x1b, 0xbc,
  0x0e, 0xc5, 0xc6, 0xbd, 0x1c, 0x8f, 0xa7, 0x3d, 0x07, 0x71, 0xf9, 0xbc,
  0x4d, 0xa9, 0xb4, 0xbd, 0xd9, 0x0b, 0x15, 0xbd, 0x4c, 0x51, 0x0d, 0x3d,
  0x53, 0xc2, 0xef, 0xbd, 0x4c, 0x2e, 0x0d, 0xb9, 0xdf, 0x32, 0x05, 0xbe,
  0x72, 0x5c, 0xa6, 0x3b, 0xd0, 0x96, 0x07, 0xbe, 0x20, 0x63, 0xd1, 0xbd,
  0xab, 0x33, 0x7a, 0xbe, 0x77, 0x7b, 0x3f, 0xbd, 0xf1, 0x9d, 0x5c, 0x3d,
  0x2f, 0x39, 0x96, 0xb9, 0x09, 0x51, 0x32, 0xbe, 0x3f, 0xb0, 0xe5, 0xbd,
  0xb3, 0x6f, 0x73, 0x3e, 0xcd, 0x7f, 0xb9, 0x3c, 0xd8, 0x76, 0x2b, 0x3e,
  0xe6, 0xb4, 0x7a, 0x3d, 0x30, 0x3f, 0x72, 0xbe, 0x7f, 0x34, 0x66, 0x3e,
  0x5e, 0x8b, 0x31, 0xbd, 0x79, 0xdf, 0x83, 0x3e, 0xf1, 0x89, 0x12, 0x3b,
  0x3d, 0xc1, 0x42, 0xbe, 0x2c, 0xe2, 0x71, 0x3e, 0x3c, 0x0a, 0xe4, 0xbc,
  0xa8, 0x89, 0xfa, 0x3d, 0x7b, 0x90, 0xa8, 0xbd, 0x0a, 0xf5, 0x43, 0x3c,
  0xb7, 0x7a, 0x00, 0xbe, 0xcc, 0x15, 0x10, 0x3d, 0xc6, 0xe0, 0x9c, 0xbd,
  0xe5, 0x1c, 0x8c, 0x3d, 0x29, 0x94, 0x2b, 0xbe, 0xff, 0xbe, 0x44, 0x3e,
  0x88, 0x77, 0xf6, 0xbd, 0x71, 0x53, 0x8c, 0xbe, 0xde, 0x58, 0x18, 0xbe,
  0x07, 0xf7, 0x9a, 0xbd, 0x60, 0x6a, 0x22, 0xbe, 0x9d, 0xf5, 0x58, 0x3d,
  0xbb, 0xec, 0x32, 0x3e, 0xfc, 0xac, 0x83, 0x3e, 0x26, 0xfb, 0xc0, 0x3d,
  0x25, 0xef, 0x4a, 0xbe, 0x14, 0x71, 0xbb, 0xbd, 0xe2, 0x79, 0x1f, 0xbe,
  0xb2, 0xd4, 0x96, 0x3d, 0x21, 0x7f, 0x34, 0xbe, 0xe5, 0xb2, 0x5e, 0x3e,
  0x6c, 0xb7, 0x64, 0x3c, 0x83, 0x0d, 0x44, 0x3d, 0x19, 0x86, 0x2c, 0x3e,
  0x4c, 0x9e, 0x26, 0x3e, 0xb4, 0x6c, 0x79, 0x3e, 0x4b, 0xae, 0xc1, 0x3d,
  0xb4, 0xa0, 0x49, 0xbe, 0x95, 0xaf, 0x70, 0x3d, 0xbd, 0xb5, 0x33, 0xbe,
  0xbe, 0xd9, 0x0a, 0xbe, 0x83, 0x0a, 0x29, 0xbd, 0x65, 0xba, 0x27, 0x3e,
  0x1b, 0xea, 0xf0, 0x3c, 0x54, 0xf5, 0x9e, 0x3e, 0x95, 0x54, 0xd2, 0xbd,
  0xd6, 0x7a, 0xac, 0x3b, 0xf3, 0x3c, 0xe4, 0xbd, 0x2b, 0xc8, 0x82, 0xbc,
  0x1c, 0x57, 0x1b, 0x3e, 0xcf, 0xf8, 0x99, 0xbe, 0x2f, 0x1e, 0x48, 0xbe,
  0xa3, 0x72, 0x32, 0x3e, 0x34, 0x30, 0xcd, 0xbd, 0xd7, 0x54, 0x39, 0xbe,
  0xd1, 0xda, 0x52, 0x3d, 0x3e, 0x21, 0x0e, 0xbe, 0xbb, 0xac, 0xde, 0xbd,
  0x9d, 0xf7, 0x7d, 0x3e, 0xb5, 0xcd, 0x63, 0x3e, 0x61, 0x5b, 0x00, 0x3e,
  0xef, 0xa6, 0x2e, 0xbe, 0xf8, 0x1c, 0x39, 0xbd, 0x51, 0x69, 0xbc, 0xbd,
  0xcb, 0xae, 0x50, 0xbe, 0x1e, 0xb7, 0x5a, 0xbe, 0x26, 0xb3, 0x42, 0xbe,
  0x5d, 0xb3, 0x15, 0xbd, 0x67, 0xa3, 0xf1, 0x3c, 0x9d, 0x70, 0xc9, 0x3d,
  0x36, 0xcf, 0x61, 0x3d, 0x81, 0xf1, 0x23, 0x3e, 0x8b, 0x5b, 0xce, 0xbd,
  0xde, 0xed, 0xeb, 0x3d, 0xfe, 0x8f, 0x82, 0xbc, 0x74, 0xfe, 0x6b, 0xbe,
  0xa9, 0x83, 0x1d, 0xbe, 0x21, 0x57, 0x99, 0xbd, 0x4f, 0x34, 0xcb, 0xbd,
  0xfe, 0x88, 0xda, 0x3b, 0x2e, 0x46, 0x86, 0x3e, 0x20, 0x3a, 0x99, 0x3d,
  0x7a, 0x0e, 0xf6, 0x3d, 0xbb, 0x81, 0xac, 0xbb, 0x3a, 0xf5, 0x1d, 0xbe,
  0x0d, 0x84, 0x86, 0x3d, 0xf8, 0xc5, 0x18, 0xbe, 0xcc, 0x03, 0x1a, 0xbd,
  0x3d, 0x5f, 0x87, 0xbd, 0x47, 0x53, 0xf5, 0xbc, 0xe2, 0xef, 0x12, 0x3e,
  0xbb, 0xa0, 0x60, 0xbe, 0x28, 0x2c, 0x7d, 0xbe, 0xae, 0xa2, 0x8d, 0x3e,
  0xc5, 0x4e, 0x8f, 0x3d, 0xc1, 0x73, 0xfe, 0x3c, 0x99, 0xb1, 0xfe, 0x3c,
  0x25, 0xf9, 0xef, 0x3c, 0xbb, 0x21, 0x3e, 0xbe, 0xf7, 0x5f, 0xc6, 0xbd,
  0x3b, 0x26, 0xae, 0xbd, 0x6b, 0xf2, 0xbb, 0x3c, 0x2d, 0xe4, 0x68, 0x3e,
  0xac, 0x26, 0x60, 0xbd, 0xcf, 0xd8, 0x51, 0xbe, 0xe2, 0x98, 0xec, 0x3d,
  0x70, 0xfd, 0x2d, 0xbe, 0xbc, 0x41, 0xef, 0x3d, 0x8a, 0xa2, 0x2b, 0xbe,
  0x2e, 0xa1, 0x35, 0x3d, 0xd8, 0xa4, 0x85, 0xbe, 0xbf, 0xf9, 0xde, 0x3d,
  0x33, 0xa8, 0xd8, 0x3d, 0x90, 0xc4, 0xb3, 0x3e, 0x46, 0x90, 0x18, 0x3e,
  0x4e, 0x1c, 0x49, 0xbe, 0x76, 0xc8, 0xeb, 0xbd, 0xf3, 0x77, 0x4f, 0xbe,
  0x76, 0xfc, 0x4a, 0xbe, 0xa3, 0x9c, 0x90, 0x3e, 0x51, 0x73, 0x8e, 0xbd,
  0x87, 0x4a, 0x04, 0xbe, 0x6a, 0xc7, 0xb8, 0xbc, 0xbb, 0x8b, 0x42, 0xbd,
  0xcb, 0x9e, 0x5a, 0x3e, 0xca, 0x4f, 0x5d, 0x3e, 0x5c, 0x91, 0xc3, 0x3d,
  0x5e, 0xd1, 0x33, 0x3e, 0x22, 0xc3, 0x8c, 0x3e, 0xba, 0x00, 0x32, 0xbb,
  0x75, 0xb5, 0xe3, 0xbc, 0xea, 0xa4, 0xde, 0xbd, 0x7b, 0xcd, 0x0d, 0x3d,
  0x64, 0x17, 0xe0, 0x3d, 0x19, 0xc2, 0xc6, 0xbd, 0x9a, 0xb3, 0x63, 0x3d,
  0xcf, 0xbb, 0xfc, 0xbd, 0xb3, 0xfd, 0xae, 0x3e, 0x3f, 0xce, 0x5f, 0xbd,
  0x77, 0xbe, 0x52, 0x3e, 0xfa, 0xd0, 0xd9, 0x3d, 0x52, 0xe1, 0x02, 0x3e,
  0xab, 0x04, 0xd3, 0xbc, 0x35, 0x2a, 0x45, 0xbe, 0x5c, 0xe5, 0x25, 0xbe,
  0x8e, 0x5d, 0x78, 0xbe, 0xc3, 0xf1, 0x5e, 0x3d, 0x91, 0x39, 0xa8, 0x3d,
  0xea, 0x49, 0x23, 0xbd, 0x21, 0x3c, 0x93, 0x3e, 0x11, 0x4c, 0x57, 0x3d,
  0x72, 0xcd, 0x86, 0xbd, 0xe5, 0xc2, 0x10, 0xbe, 0x4b, 0x31, 0xb2, 0xbd,
  0xb3, 0xa3, 0x18, 0xbe, 0x2e, 0x9a, 0x13, 0xbe, 0x94, 0x11, 0x4f, 0x3d,
  0xee, 0xb0, 0x26, 0xbd, 0x31, 0x59, 0xa4, 0xbe, 0x9c, 0x75, 0x85, 0xbe,
  0xee, 0x64, 0x70, 0xbe, 0xf9, 0xec, 0x0a, 0xbe, 0x91, 0xb0, 0x5b, 0x3e,
  0xb2, 0xf4, 0xf5, 0xbc, 0xcc, 0xef, 0x95, 0x3d, 0x0e, 0x28, 0x48, 0xbe,
  0x62, 0x61, 0x2b, 0x3e, 0x3a, 0x88, 0x56, 0x3d, 0x62, 0x09, 0xeb, 0xbc,
  0x64, 0x38, 0x8d, 0xbd, 0xf1, 0x16, 0xd9, 0xbd, 0x2e, 0x26, 0x2a, 0xbe,
  0x95, 0x9e, 0x48, 0xbe, 0xf6, 0xf4, 0xe8, 0xbd, 0xb8, 0x23, 0x20, 0x3e,
  0x61, 0xdd, 0x87, 0xbc, 0x21, 0xb4, 0x39, 0x3e, 0x2c, 0x15, 0x17, 0x3d,
  0xef, 0xe5, 0xfd, 0xbb, 0x30, 0x94, 0x8f, 0xbd, 0x60, 0xe7, 0xee, 0xbc,
  0xec, 0x01, 0xb5, 0x3d, 0xf4, 0xa0, 0x5f, 0x3e, 0x22, 0x16, 0x26, 0xbe,
  0xb1, 0x5d, 0x35, 0x3c, 0x88, 0xcc, 0x06, 0xbe, 0xc2, 0x38, 0x94, 0xbc,
  0xf1, 0x12, 0x87, 0xbd, 0x6e, 0x9b, 0x5d, 0x3e, 0x02, 0x02, 0x9f, 0x3c,
  0xfc, 0x28, 0x26, 0x3d, 0x4b, 0x95, 0x9a, 0xbe, 0x1a, 0xd1, 0x52, 0xbe,
  0x09, 0xed, 0x97, 0xbc, 0x94, 0xf4, 0xa3, 0xbe, 0xb3, 0xfa, 0x10, 0x3e,
  0x3b, 0xc4, 0x8d, 0xbd, 0x90, 0x80, 0xf4, 0x3d, 0xe8, 0x3a, 0x0f, 0x3e,
  0x4a, 0x1e, 0x08, 0x3e, 0xc2, 0x03, 0x89, 0xbc, 0x7d, 0x9b, 0x36, 0x3e,
  0xe2, 0xc0, 0xc0, 0xbc, 0x2f, 0x76, 0xfc, 0x3d, 0x09, 0x15, 0xe4, 0xbd,
  0x1d, 0x33, 0xcf, 0x3d, 0x47, 0xea, 0x39, 0x3e, 0xf3, 0x36, 0x18, 0x3d,
  0x62, 0x1c, 0x3c, 0x3e, 0x6e, 0xf8, 0x4d, 0xbc, 0x51, 0x3d, 0xf0, 0x3b,
  0xfb, 0x02, 0xcd, 0xbd, 0x1f, 0x5f, 0x1b, 0xbd, 0xd8, 0xe1, 0x39, 0xbe,
  0xdc, 0xd1, 0xaa, 0x3c, 0x4c, 0x46, 0xd3, 0xbd, 0x4b, 0xe3, 0xc3, 0x3b,
  0x7a, 0xc9, 0x13, 0xbe, 0xae, 0x17, 0x6b, 0x3d, 0x25, 0xde, 0x17, 0x3e,
  0xe5, 0x82, 0x17, 0x3d, 0x85, 0x96, 0x2c, 0xbd, 0x85, 0x45, 0x65, 0x3d,
  0x02, 0xef, 0x8f, 0x3b, 0xd4, 0xb2, 0xdf, 0x3d, 0x3d, 0x45, 0xc1, 0xbb,
  0xef, 0x3e, 0x2d, 0xbd, 0xb8, 0xb2, 0x5f, 0xbc, 0x03, 0xe1, 0x6f, 0x3e,
  0xa1, 0x47, 0x8d, 0x3d, 0x31, 0xd1, 0x0f, 0xbe, 0x77, 0x58, 0xa1, 0x3c,
  0x01, 0x66, 0x98, 0xbd, 0x93, 0x6a, 0xcd, 0x3d, 0xc6, 0x07, 0x5c, 0xbe,
  0xf2, 0xc2, 0x61, 0xbd, 0x82, 0x46, 0xa6, 0x3e, 0xb6, 0x80, 0x4a, 0x3d,
  0x47, 0x71, 0xb1, 0x3d, 0xf4, 0x36, 0x60, 0xbe, 0x3d, 0xea, 0x71, 0x3e,
  0x60, 0xfd, 0x67, 0x3d, 0xa3, 0xaa, 0x11, 0xbe, 0xcc, 0x04, 0x77, 0x3e,
  0xff, 0xa0, 0x43, 0x3e, 0x11, 0x67, 0x9a, 0xbc, 0x29, 0xa6, 0xec, 0x3d,
  0xc0, 0xc4, 0x8d, 0xbd, 0x09, 0x2e, 0x87, 0x3e, 0x7b, 0x09, 0xe6, 0x3c,
  0x1f, 0x95, 0x15, 0x3e, 0x59, 0x17, 0x64, 0xbe, 0x2a, 0xeb, 0x0e, 0xbe,
  0xd8, 0x73, 0xc6, 0xbd, 0xb0, 0x45, 0x8e, 0xbe, 0x41, 0x68, 0x47, 0xbe,
  0x28, 0xb9, 0x44, 0xbe, 0xce, 0x2e, 0x62, 0xbe, 0xef, 0x05, 0x03, 0x3e,
  0x66, 0x6f, 0x0d, 0xbd, 0xd1, 0x16, 0x45, 0x3e, 0x5f, 0x36, 0x4f, 0x3e,
  0x63, 0x88, 0x11, 0x3d, 0xa6, 0x21, 0x98, 0xbe, 0x8f, 0x28, 0x6f, 0x3e,
  0x6f, 0x06, 0xc6, 0xbb, 0xcb, 0x30, 0x17, 0x3d, 0xdc, 0xda, 0x1c, 0xbe,
  0x1e, 0x43, 0x59, 0xbe, 0x2b, 0x56, 0xeb, 0x3d, 0x23, 0xc5, 0x7d, 0xbd,
  0x7a, 0x34, 0x4c, 0xbe, 0xcb, 0x18, 0x18, 0xbe, 0xbe, 0x24, 0x81, 0x3e,
  0x60, 0x44, 0x66, 0xbe, 0x99, 0xb2, 0x4f, 0x3c, 0xaa, 0x9a, 0x0b, 0x3e,
  0x1a, 0x64, 0x1d, 0x3e, 0x2d, 0x09, 0x7c, 0x3e, 0x6b, 0x57, 0x31, 0xbe,
  0x15, 0xa4, 0x19, 0x3e, 0x28, 0x27, 0xac, 0xbe, 0xcb, 0xc3, 0xca, 0xbd,
  0x21, 0x0c, 0x67, 0xbd, 0x2f, 0x77, 0x70, 0xbe, 0x9c, 0x4f, 0x5a, 0xbe,
  0xff, 0xc7, 0xa4, 0xbd, 0x7a, 0x58, 0x67, 0xbd, 0x3a, 0xbd, 0x8b, 0x3d,
  0xbe, 0x0c, 0xe8, 0x3b, 0xa8, 0xa5, 0x89, 0xbe, 0x0d, 0xf9, 0xc9, 0xbd,
  0x04, 0x24, 0x46, 0xbe, 0x49, 0xd9, 0x22, 0xbe, 0x6a, 0x89, 0xda, 0xbd,
  0x2e, 0xa1, 0x4b, 0x3b, 0xcc, 0x9b, 0xcf, 0xbd, 0x30, 0x53, 0x8f, 0xbc,
  0x6c, 0xdc, 0x3e, 0x3d, 0xd3, 0xf4, 0xc7, 0xbd, 0x17, 0x12, 0x0e, 0x3e,
  0x30, 0xe2, 0x1c, 0xbc, 0x39, 0x0e, 0x50, 0xbe, 0xc3, 0xbf, 0xe2, 0xbd,
  0xd4, 0x17, 0x25, 0xbe, 0x8d, 0x9e, 0x7d, 0xbd, 0x6b, 0xdd, 0x35, 0x3e,
  0x76, 0x7d, 0x4f, 0x3d, 0x35, 0x45, 0x58, 0x3e, 0xda, 0x5a, 0x2f, 0xbd,
  0x6c, 0xf4, 0x29, 0xbe, 0x6b, 0x84, 0x20, 0xbe, 0x0e, 0x41, 0x3a, 0xbe,
  0x1a, 0xd7, 0xec, 0x3d, 0xfc, 0x9e, 0x6e, 0x3b, 0x74, 0x4b, 0x5d, 0x3c,
  0x74, 0xc1, 0x49, 0xbd, 0xde, 0xfd, 0x10, 0xbe, 0x4e, 0x22, 0x9b, 0xbd,
  0x4d, 0xba, 0x15, 0x3e, 0x3e, 0x3b, 0xbf, 0x3e, 0x62, 0x85, 0xd6, 0x3d,
  0xd8, 0xb7, 0x8d, 0xbc, 0x78, 0xee, 0xe2, 0x3c, 0x4c, 0x65, 0x56, 0xbd,
  0xac, 0x25, 0x06, 0xbe, 0x7c, 0x30, 0xd6, 0x3d, 0x4b, 0xe6, 0xa8, 0xbc,
  0x0e, 0x62, 0xfa, 0xbd, 0xc1, 0x8b, 0x23, 0xbe, 0x81, 0xbb, 0xca, 0xbb,
  0xc9, 0x26, 0x9c, 0x3d, 0x75, 0xa9, 0x20, 0xbe, 0x0a, 0x0c, 0xea, 0xbd,
  0x30, 0xe1, 0x91, 0x3d, 0xb7, 0xdc, 0x70, 0xbe, 0x99, 0xca, 0x35, 0xbe,
  0xda, 0x12, 0x87, 0x3d, 0xb3, 0xc1, 0x86, 0x3c, 0x73, 0x58, 0x79, 0x3e,
  0xea, 0x84, 0x3e, 0xbc, 0xef, 0x23, 0x38, 0xbe, 0xb5, 0x73, 0x74, 0x3d,
  0x09, 0xb9, 0x4d, 0x3d, 0x2b, 0x10, 0xb7, 0x3c, 0x02, 0xad, 0x14, 0x3d,
  0xbb, 0xe4, 0x2f, 0xbc, 0xc8, 0xda, 0x47, 0xbe, 0x1d, 0x3f, 0x0a, 0xbe,
  0xf2, 0xfd, 0xff, 0xff, 0x04, 0x00, 0x00, 0x00, 0x00, 0x02, 0x00, 0x00,
  0x60, 0x41, 0xb0, 0xbd, 0x51, 0x63, 0x02, 0x3e, 0xc2, 0xe6, 0x18, 0xbd,
  0xd1, 0x1e, 0x92, 0xbd, 0x86, 0x00, 0xa9, 0x3d, 0x27, 0x88, 0x7a, 0xbd,
  0xe4, 0x11, 0x34, 0xbd, 0x1c, 0x24, 0x33, 0x3e, 0x36, 0xc3, 0xeb, 0x3d,
  0x75, 0xfc, 0x22, 0x3e, 0x1e, 0xcb, 0x76, 0xbd, 0x31, 0x92, 0x0b, 0x3e,
  0x7f, 0x32, 0x4a, 0x39, 0x17, 0x67, 0x88, 0xbd, 0x19, 0x3f, 0x2c, 0x3e,
  0x78, 0x80, 0x01, 0x3e, 0x0a, 0x75, 0x05, 0x3e, 0x86, 0xb6, 0x1b, 0x3e,
  0xa9, 0xdc, 0x21, 0x3e, 0x7a, 0xde, 0x15, 0xbd, 0x66, 0x3e, 0x0c, 0x3e,
  0x8b, 0x53, 0xfe, 0x3d, 0x77, 0xd4, 0xc0, 0x3d, 0x78, 0xdb, 0xc9, 0xbc,
  0xc0, 0x9d, 0x95, 0xbd, 0x4e, 0x3f, 0xef, 0x3d, 0x42, 0xa6, 0x1c, 0xbd,
  0x5b, 0xe5, 0x81, 0xbd, 0xaa, 0xe6, 0x26, 0x3e, 0x81, 0x15, 0x12, 0xbd,
  0x24, 0x34, 0x9c, 0xbd, 0xc4, 0xcc, 0x42, 0xbd, 0x86, 0xc6, 0x8b, 0xbd,
  0xeb, 0x7f, 0x0a, 0x3e, 0x86, 0x82, 0x5c, 0xbd, 0x07, 0x6d, 0x67, 0xbd,
  0x75, 0x9e, 0xbf, 0x3d, 0x60, 0xb7, 0x7f, 0xbd, 0x33, 0x2f, 0xc9, 0x3b,
  0x3c, 0x48, 0x99, 0x3d, 0x2e, 0x0e, 0x98, 0xbd, 0x5a, 0x32, 0xf5, 0x3d,
  0xf6, 0x15, 0xf2, 0x3d, 0x42, 0x0d, 0xe3, 0xbc, 0xe1, 0x8a, 0x49, 0x3e,
  0x13, 0x7f, 0xd9, 0x3d, 0x00, 0x84, 0x33, 0x3e, 0x1b, 0xee, 0xb7, 0x3c,
  0x15, 0x2b, 0xff, 0x3d, 0xf5, 0xd3, 0x5d, 0x3c, 0x1f, 0x95, 0x0c, 0x3e,
  0xc2, 0x8d, 0x52, 0xbd, 0x2e, 0x0b, 0x08, 0x3e, 0x46, 0x08, 0x11, 0xbd,
  0x9e, 0x7c, 0x24, 0xbd, 0x41, 0x3b, 0x96, 0xbd, 0x5c, 0x54, 0x8c, 0xbd,
  0x78, 0x00, 0x8c, 0xbc, 0x97, 0x38, 0x58, 0xbd, 0x62, 0x47, 0x18, 0x3e,
  0x51, 0x69, 0xea, 0x3d, 0x1e, 0x46, 0x8d, 0xbb, 0x34, 0x67, 0x21, 0x3e,
  0x55, 0x36, 0xe8, 0x3d, 0xe8, 0xfc, 0x3b, 0x3e, 0x14, 0x24, 0x0f, 0x3e,
  0xfa, 0xe9, 0xbb, 0x3c, 0xb7, 0x7c, 0x87, 0xbd, 0x13, 0xc6, 0x94, 0xbd,
  0x32, 0x24, 0x28, 0x3e, 0xd0, 0x0c, 0xfd, 0xba, 0xfb, 0x76, 0x68, 0xbd,
  0xb7, 0xb9, 0x83, 0xbd, 0x6f, 0xb5, 0x8c, 0xbd, 0xde, 0xd4, 0x88, 0xbc,
  0x84, 0x09, 0x1f, 0x3e, 0x17, 0xe8, 0x19, 0x3e, 0xa9, 0x5d, 0x4d, 0x3d,
  0xb8, 0x98, 0x14, 0x3e, 0x91, 0x0d, 0xc5, 0xbb, 0x0f, 0x0c, 0x55, 0xbd,
  0x5d, 0xe5, 0x93, 0x3d, 0x90, 0x36, 0x1b, 0x3e, 0xe4, 0x65, 0x88, 0xbd,
  0xc8, 0xfa, 0xd9, 0x3d, 0x42, 0x56, 0x78, 0xbd, 0x77, 0x4c, 0x04, 0xbd,
  0xe6, 0x08, 0xfb, 0x3d, 0xea, 0x18, 0x28, 0x3e, 0x62, 0xb9, 0x12, 0x3d,
  0x50, 0x46, 0x29, 0xbc, 0xdf, 0x0a, 0x19, 0x3e, 0x80, 0x02, 0xfa, 0x3d,
  0x51, 0xad, 0x51, 0xbd, 0xb4, 0xb1, 0x6d, 0xbc, 0xd8, 0xbc, 0x28, 0x3e,
  0x60, 0x6f, 0x3e, 0x3e, 0x70, 0xed, 0xfa, 0x3d, 0x5a, 0xa9, 0xd6, 0x3c,
  0x97, 0xe1, 0xfe, 0x3d, 0xc4, 0x5a, 0xa5, 0xbd, 0xe3, 0x05, 0x73, 0xbd,
  0xe1, 0x31, 0xdc, 0x3d, 0x21, 0x29, 0xe5, 0x3d, 0x5e, 0x7e, 0x67, 0xbd,
  0x2f, 0x5a, 0x41, 0x3e, 0x04, 0xdf, 0x22, 0x3e, 0x00, 0xd8, 0x8d, 0xbd,
  0x30, 0xa5, 0x21, 0x3e, 0x96, 0x9e, 0x2c, 0x3e, 0x8a, 0x1d, 0x76, 0xbd,
  0xdf, 0x62, 0x8a, 0xbd, 0x3d, 0x6b, 0x5c, 0x3e, 0xe8, 0x63, 0xf6, 0x3d,
  0x00, 0x26, 0x10, 0xbd, 0x43, 0x76, 0x39, 0x3e, 0x3c, 0xfe, 0x4f, 0xbd,
  0xdb, 0x5c, 0x85, 0xbd, 0xd6, 0xf1, 0xe1, 0xbc, 0x98, 0x99, 0xf5, 0xbc,
  0xd0, 0x6d, 0x2c, 0xbd, 0x4d, 0x06, 0x0d, 0xbd, 0xc6, 0x95, 0xca, 0x3d,
  0x51, 0x3f, 0x39, 0x3e, 0x08, 0xa8, 0xdb, 0x3d, 0x8a, 0x8b, 0x00, 0x3e,
  0xdf, 0xf0, 0x1c, 0xbd, 0x06, 0xe4, 0x6c, 0x3e, 0x00, 0x00, 0x06, 0x00,
  0x08, 0x00, 0x04, 0x00, 0x06, 0x00, 0x00, 0x00, 0x04, 0x00, 0x00, 0x00,
  0x04, 0x00, 0x00, 0x00, 0xf5, 0xa6, 0xd9, 0xbd, 0xe4, 0xfb, 0xff, 0xff,
  0xe8, 0xfb, 0xff, 0xff, 0x0f, 0x00, 0x00, 0x00, 0x4d, 0x4c, 0x49, 0x52,
  0x20, 0x43, 0x6f, 0x6e, 0x76, 0x65, 0x72, 0x74, 0x65, 0x64, 0x2e, 0x00,
  0x01, 0x00, 0x00, 0x00, 0x14, 0x00, 0x00, 0x00, 0x00, 0x00, 0x0e, 0x00,
  0x18, 0x00, 0x14, 0x00, 0x10, 0x00, 0x0c, 0x00, 0x08, 0x00, 0x04, 0x00,
  0x0e, 0x00, 0x00, 0x00, 0x14, 0x00, 0x00, 0x00, 0x1c, 0x00, 0x00, 0x00,
  0xd0, 0x00, 0x00, 0x00, 0xd4, 0x00, 0x00, 0x00, 0xd8, 0x00, 0x00, 0x00,
  0x04, 0x00, 0x00, 0x00, 0x6d, 0x61, 0x69, 0x6e, 0x00, 0x00, 0x00, 0x00,
  0x03, 0x00, 0x00, 0x00, 0x78, 0x00, 0x00, 0x00, 0x34, 0x00, 0x00, 0x00,
  0x10, 0x00, 0x00, 0x00, 0x00, 0x00, 0x0a, 0x00, 0x10, 0x00, 0x0c, 0x00,
  0x08, 0x00, 0x04, 0x00, 0x0a, 0x00, 0x00, 0x00, 0x0c, 0x00, 0x00, 0x00,
  0x10, 0x00, 0x00, 0x00, 0x01, 0x00, 0x00, 0x00, 0x01, 0x00, 0x00, 0x00,
  0x07, 0x00, 0x00, 0x00, 0x01, 0x00, 0x00, 0x00, 0x06, 0x00, 0x00, 0x00,
  0xce, 0xff, 0xff, 0xff, 0x10, 0x00, 0x00, 0x00, 0x00, 0x00, 0x00, 0x08,
  0x0c, 0x00, 0x00, 0x00, 0x10, 0x00, 0x00, 0x00, 0x8c, 0xfc, 0xff, 0xff,
  0x01, 0x00, 0x00, 0x00, 0x06, 0x00, 0x00, 0x00, 0x03, 0x00, 0x00, 0x00,
  0x05, 0x00, 0x00, 0x00, 0x04, 0x00, 0x00, 0x00, 0x01, 0x00, 0x00, 0x00,
  0x00, 0x00, 0x0e, 0x00, 0x16, 0x00, 0x00, 0x00, 0x10, 0x00, 0x0c, 0x00,
  0x0b, 0x00, 0x04, 0x00, 0x0e, 0x00, 0x00, 0x00, 0x18, 0x00, 0x00, 0x00,
  0x00, 0x00, 0x00, 0x08, 0x18, 0x00, 0x00, 0x00, 0x1c, 0x00, 0x00, 0x00,
  0x00, 0x00, 0x06, 0x00, 0x08, 0x00, 0x07, 0x00, 0x06, 0x00, 0x00, 0x00,
  0x00, 0x00, 0x00, 0x01, 0x01, 0x00, 0x00, 0x00, 0x05, 0x00, 0x00, 0x00,
  0x03, 0x00, 0x00, 0x00, 0x00, 0x00, 0x00, 0x00, 0x03, 0x00, 0x00, 0x00,
  0x02, 0x00, 0x00, 0x00, 0x01, 0x00, 0x00, 0x00, 0x07, 0x00, 0x00, 0x00,
  0x01, 0x00, 0x00, 0x00, 0x00, 0x00, 0x00, 0x00, 0x08, 0x00, 0x00, 0x00,
  0xd0, 0x02, 0x00, 0x00, 0x60, 0x02, 0x00, 0x00, 0xf4, 0x01, 0x00, 0x00,
  0xac, 0x01, 0x00, 0x00, 0x60, 0x01, 0x00, 0x00, 0xd8, 0x00, 0x00, 0x00,
  0x60, 0x00, 0x00, 0x00, 0x04, 0x00, 0x00, 0x00, 0x66, 0xfd, 0xff, 0xff,
  0x00, 0x00, 0x00, 0x01, 0x14, 0x00, 0x00, 0x00, 0x1c, 0x00, 0x00, 0x00,
  0x1c, 0x00, 0x00, 0x00, 0x08, 0x00, 0x00, 0x00, 0x34, 0x00, 0x00, 0x00,
  0x02, 0x00, 0x00, 0x00, 0xff, 0xff, 0xff, 0xff, 0x01, 0x00, 0x00, 0x00,
  0x50, 0xfd, 0xff, 0xff, 0x19, 0x00, 0x00, 0x00, 0x53, 0x74, 0x61, 0x74,
  0x65, 0x66, 0x75, 0x6c, 0x50, 0x61, 0x72, 0x74, 0x69, 0x74, 0x69, 0x6f,
  0x6e, 0x65, 0x64, 0x43, 0x61, 0x6c, 0x6c, 0x3a, 0x30, 0x00, 0x00, 0x00,
  0x02, 0x00, 0x00, 0x00, 0x01, 0x00, 0x00, 0x00, 0x01, 0x00, 0x00, 0x00,
  0xbe, 0xfd, 0xff, 0xff, 0x00, 0x00, 0x00, 0x01, 0x14, 0x00, 0x00, 0x00,
  0x1c, 0x00, 0x00, 0x00, 0x1c, 0x00, 0x00, 0x00, 0x07, 0x00, 0x00, 0x00,
  0x50, 0x00, 0x00, 0x00, 0x02, 0x00, 0x00, 0x00, 0xff, 0xff, 0xff, 0xff,
  0x01, 0x00, 0x00, 0x00, 0xa8, 0xfd, 0xff, 0xff, 0x34, 0x00, 0x00, 0x00,
  0x73, 0x65, 0x71, 0x75, 0x65, 0x6e, 0x74, 0x69, 0x61, 0x6c, 0x2f, 0x64,
  0x65, 0x6e, 0x73, 0x65, 0x5f, 0x31, 0x2f, 0x4d, 0x61, 0x74, 0x4d, 0x75,
  0x6c, 0x3b, 0x73, 0x65, 0x71, 0x75, 0x65, 0x6e, 0x74, 0x69, 0x61, 0x6c,
  0x2f, 0x64, 0x65, 0x6e, 0x73, 0x65, 0x5f, 0x31, 0x2f, 0x42, 0x69, 0x61,
  0x73, 0x41, 0x64, 0x64, 0x00, 0x00, 0x00, 0x00, 0x02, 0x00, 0x00, 0x00,
  0x01, 0x00, 0x00, 0x00, 0x01, 0x00, 0x00, 0x00, 0x32, 0xfe, 0xff, 0xff,
  0x00, 0x00, 0x00, 0x01, 0x14, 0x00, 0x00, 0x00, 0x1c, 0x00, 0x00, 0x00,
  0x1c, 0x00, 0x00, 0x00, 0x06, 0x00, 0x00, 0x00, 0x60, 0x00, 0x00, 0x00,
  0x02, 0x00, 0x00, 0x00, 0xff, 0xff, 0xff, 0xff, 0x80, 0x00, 0x00, 0x00,
  0x1c, 0xfe, 0xff, 0xff, 0x46, 0x00, 0x00, 0x00, 0x73, 0x65, 0x71, 0x75,
  0x65, 0x6e, 0x74, 0x69, 0x61, 0x6c, 0x2f, 0x64, 0x65, 0x6e, 0x73, 0x65,
  0x2f, 0x4d, 0x61, 0x74, 0x4d, 0x75, 0x6c, 0x3b, 0x73, 0x65, 0x71, 0x75,
  0x65, 0x6e, 0x74, 0x69, 0x61, 0x6c, 0x2f, 0x64, 0x65, 0x6e, 0x73, 0x65,
  0x2f, 0x52, 0x65, 0x6c, 0x75, 0x3b, 0x73, 0x65, 0x71, 0x75, 0x65, 0x6e,
  0x74, 0x69, 0x61, 0x6c, 0x2f, 0x64, 0x65, 0x6e, 0x73, 0x65, 0x2f, 0x42,
  0x69, 0x61, 0x73, 0x41, 0x64, 0x64, 0x00, 0x00, 0x02, 0x00, 0x00, 0x00,
  0x01, 0x00, 0x00, 0x00, 0x80, 0x00, 0x00, 0x00, 0x22, 0xff, 0xff, 0xff,
  0x00, 0x00, 0x00, 0x01, 0x10, 0x00, 0x00, 0x00, 0x10, 0x00, 0x00, 0x00,
  0x05, 0x00, 0x00, 0x00, 0x28, 0x00, 0x00, 0x00, 0x90, 0xfe, 0xff, 0xff,
  0x19, 0x00, 0x00, 0x00, 0x73, 0x65, 0x71, 0x75, 0x65, 0x6e, 0x74, 0x69,
  0x61, 0x6c, 0x2f, 0x64, 0x65, 0x6e, 0x73, 0x65, 0x5f, 0x31, 0x2f, 0x4d,
  0x61, 0x74, 0x4d, 0x75, 0x6c, 0x00, 0x00, 0x00, 0x02, 0x00, 0x00, 0x00,
  0x01, 0x00, 0x00, 0x00, 0x80, 0x00, 0x00, 0x00, 0x6a, 0xff, 0xff, 0xff,
  0x00, 0x00, 0x00, 0x01, 0x10, 0x00, 0x00, 0x00, 0x10, 0x00, 0x00, 0x00,
  0x04, 0x00, 0x00, 0x00, 0x24, 0x00, 0x00, 0x00, 0xd8, 0xfe, 0xff, 0xff,
  0x17, 0x00, 0x00, 0x00, 0x73, 0x65, 0x71, 0x75, 0x65, 0x6e, 0x74, 0x69,
  0x61, 0x6c, 0x2f, 0x64, 0x65, 0x6e, 0x73, 0x65, 0x2f, 0x4d, 0x61, 0x74,
  0x4d, 0x75, 0x6c, 0x00, 0x02, 0x00, 0x00, 0x00, 0x80, 0x00, 0x00, 0x00,
  0x03, 0x00, 0x00, 0x00, 0xae, 0xff, 0xff, 0xff, 0x00, 0x00, 0x00, 0x01,
  0x10, 0x00, 0x00, 0x00, 0x10, 0x00, 0x00, 0x00, 0x03, 0x00, 0x00, 0x00,
  0x34, 0x00, 0x00, 0x00, 0x1c, 0xff, 0xff, 0xff, 0x27, 0x00, 0x00, 0x00,
  0x73, 0x65, 0x71, 0x75, 0x65, 0x6e, 0x74, 0x69, 0x61, 0x6c, 0x2f, 0x64,
  0x65, 0x6e, 0x73, 0x65, 0x2f, 0x42, 0x69, 0x61, 0x73, 0x41, 0x64, 0x64,
  0x2f, 0x52, 0x65, 0x61, 0x64, 0x56, 0x61, 0x72, 0x69, 0x61, 0x62, 0x6c,
  0x65, 0x4f, 0x70, 0x00, 0x01, 0x00, 0x00, 0x00, 0x80, 0x00, 0x00, 0x00,
  0x00, 0x00, 0x16, 0x00, 0x18, 0x00, 0x14, 0x00, 0x00, 0x00, 0x10, 0x00,
  0x0c, 0x00, 0x08, 0x00, 0x00, 0x00, 0x00, 0x00, 0x00, 0x00, 0x07, 0x00,
  0x16, 0x00, 0x00, 0x00, 0x00, 0x00, 0x00, 0x01, 0x10, 0x00, 0x00, 0x00,
  0x10, 0x00, 0x00, 0x00, 0x02, 0x00, 0x00, 0x00, 0x38, 0x00, 0x00, 0x00,
  0x84, 0xff, 0xff, 0xff, 0x29, 0x00, 0x00, 0x00, 0x73, 0x65, 0x71, 0x75,
  0x65, 0x6e, 0x74, 0x69, 0x61, 0x6c, 0x2f, 0x64, 0x65, 0x6e, 0x73, 0x65,
  0x5f, 0x31, 0x2f, 0x42, 0x69, 0x61, 0x73, 0x41, 0x64, 0x64, 0x2f, 0x52,
  0x65, 0x61, 0x64, 0x56, 0x61, 0x72, 0x69, 0x61, 0x62, 0x6c, 0x65, 0x4f,
  0x70, 0x00, 0x00, 0x00, 0x01, 0x00, 0x00, 0x00, 0x01, 0x00, 0x00, 0x00,
  0x00, 0x00, 0x16, 0x00, 0x1c, 0x00, 0x18, 0x00, 0x00, 0x00, 0x14, 0x00,
  0x10, 0x00, 0x0c, 0x00, 0x00, 0x00, 0x00, 0x00, 0x08, 0x00, 0x07, 0x00,
  0x16, 0x00, 0x00, 0x00, 0x00, 0x00, 0x00, 0x01, 0x14, 0x00, 0x00, 0x00,
  0x20, 0x00, 0x00, 0x00, 0x20, 0x00, 0x00, 0x00, 0x01, 0x00, 0x00, 0x00,
  0x3c, 0x00, 0x00, 0x00, 0x02, 0x00, 0x00, 0x00, 0xff, 0xff, 0xff, 0xff,
  0x03, 0x00, 0x00, 0x00, 0x04, 0x00, 0x04, 0x00, 0x04, 0x00, 0x00, 0x00,
  0x1d, 0x00, 0x00, 0x00, 0x73, 0x65, 0x72, 0x76, 0x69, 0x6e, 0x67, 0x5f,
  0x64, 0x65, 0x66, 0x61, 0x75, 0x6c, 0x74, 0x5f, 0x64, 0x65, 0x6e, 0x73,
  0x65, 0x5f, 0x69, 0x6e, 0x70, 0x75, 0x74, 0x3a, 0x30, 0x00, 0x00, 0x00,
  0x02, 0x00, 0x00, 0x00, 0x01, 0x00, 0x00, 0x00, 0x03, 0x00, 0x00, 0x00,
  0x02, 0x00, 0x00, 0x00, 0x20, 0x00, 0x00, 0x00, 0x04, 0x00, 0x00, 0x00,
  0xf4, 0xff, 0xff, 0xff, 0x0e, 0x00, 0x00, 0x00, 0x00, 0x00, 0x00, 0x0e,
  0x0c, 0x00, 0x0c, 0x00, 0x0b, 0x00, 0x00, 0x00, 0x00, 0x00, 0x04, 0x00,
  0x0c, 0x00, 0x00, 0x00, 0x09, 0x00, 0x00, 0x00, 0x00, 0x00, 0x00, 0x09
};
unsigned int modelo_lite_tflite_len = 4224;
